77
8b
6c
81
6a
6c
84
6d
7e
7a
75
8d
84
84
7c
6f
6e
87
7a
84
95
8e
70
8c
8b
7e
6b
84
6e
70
8d
7f
75
81
71
7d
8a
61
8c
b1
c1
c4
6e
ae
b2
b6
68
93
83
91
7f
7f
86
74
80
7b
89
8a
89
99
a7
93
8d
a1
8d
56
6b
52
4d
78
66
5e
67
5a
69
7a
65
78
7b
5f
6a
71
72
72
69
95
72
7c
72
a3
6f
57
8a
6d
86
88
81
7e
8b
7b
86
91
76
7c
83
74
80
8a
6e
74
70
7d
6a
70
75
74
8f
82
5f
8f
7f
89
7a
8b
75
89
76
92
7a
84
84
88
89
74
95
81
83
8f
62
72
69
95
97
51
96
48
98
74
7c
86
84
81
82
85
83
7e
8b
83
84
7f
75
82
80
7d
7a
78
5c
81
6a
6c
57
78
6f
83
78
7e
85
75
7d
80
77
84
83
85
81
85
8c
84
84
89
88
7d
73
6f
5e
93
84
82
82
4a
7c
83
92
7d
79
88
84
7e
72
8f
83
7d
88
84
87
80
76
7b
7f
87
79
82
5c
87
e6
69
82
9e
6f
6d
79
7f
7c
7a
7a
7a
81
76
84
83
81
83
78
86
82
7d
93
81
87
61
4a
90
6c
88
a2
84
84
83
89
79
85
81
88
84
7a
93
7a
75
7e
79
7d
87
87
7e
7c
88
8e
7a
4c
6e
77
6d
bc
79
82
92
83
7e
70
7c
7c
89
81
81
89
80
85
7f
84
85
84
83
87
82
7d
77
5b
6d
6a
ff
59
86
74
75
8a
82
81
81
7f
91
73
81
7a
6e
78
8a
7c
85
7f
8c
86
7f
80
6c
52
8b
8d
71
73
70
71
83
83
7e
81
7f
80
81
88
77
7b
77
84
85
84
88
7c
86
89
84
8b
87
0c
96
90
95
91
a3
a1
7e
88
7c
84
80
87
7f
7f
6f
79
81
74
81
89
87
75
83
7d
8f
85
9d
06
73
90
8a
8c
57
6e
8a
92
88
7a
8d
79
81
88
81
70
86
6e
7d
80
85
86
85
87
86
7d
83
6e
71
83
7a
65
61
81
82
75
92
7b
8c
87
7c
7f
7d
6d
7e
76
8b
85
80
8b
84
83
85
89
88
66
88
8a
90
59
7f
7e
8e
84
81
83
7f
78
8b
7b
79
77
84
7b
80
87
7b
89
88
7a
7d
85
73
3e
b1
92
69
6a
88
8b
7b
85
83
83
7e
86
7e
89
76
7b
7c
8c
7f
81
7f
84
7b
8d
81
7a
81
5d
d9
76
7b
6e
68
7b
7f
81
88
83
8d
83
79
79
70
81
87
77
80
7e
79
76
79
86
8a
81
85
6f
5c
8f
9e
a1
80
7b
87
7d
87
84
81
85
80
83
7a
81
7e
7a
82
84
72
7d
79
92
75
8c
70
83
7a
6f
9c
67
6b
8f
8c
7a
75
90
85
87
83
8e
7f
7e
87
7c
77
85
80
86
77
8d
7f
7e
56
88
93
92
7d
6f
93
7e
7d
83
81
83
80
82
7c
82
7d
7e
7c
85
6f
80
79
81
88
7d
7a
7d
5e
f4
6a
6b
6b
5e
89
73
82
83
74
8a
89
80
78
7a
91
7e
78
85
82
82
77
7b
76
89
8e
62
9e
d9
91
85
7e
7a
4d
5c
8f
7e
8c
7b
82
7f
84
7c
76
7d
83
82
8f
82
7d
70
87
8f
79
6b
97
59
78
8e
89
86
72
ab
84
71
78
85
89
8c
6b
94
7f
82
83
72
89
92
6a
78
5b
6d
74
93
73
8e
6b
93
8e
87
7a
8b
6e
44
75
7c
81
78
89
68
81
6b
67
86
61
3d
3e
4d
5f
5f
48
78
6f
7e
95
8a
81
7c
72
8a
85
76
60
4f
6e
5f
65
73
73
56
34
4f
48
2c
70
63
74
60
6c
79
75
70
73
6f
6e
7e
7d
88
6b
6a
8f
7a
7d
6f
8d
7a
75
67
91
92
74
88
6f
7d
78
85
6e
7e
6e
89
82
7f
86
78
70
80
71
7e
73
75
92
6a
80
85
92
75
71
7b
94
88
74
83
7f
6c
90
71
89
79
90
7b
70
6c
82
6c
75
7b
8a
86
7c
83
7b
7c
77
8b
84
74
84
73
6c
94
92
85
78
93
93
7a
6b
94
7d
79
75
8f
7e
7a
81
7c
75
92
80
7b
a2
7a
96
85
8c
6d
a0
88
61
7c
65
7f
87
75
8b
69
77
82
8f
5b
37
86
70
61
73
7b
79
89
88
76
86
82
8c
79
87
79
81
86
83
60
64
6a
6e
8b
6e
9e
95
8a
8b
81
79
9a
85
8d
80
7b
82
83
84
86
7f
83
88
84
7c
81
90
6f
01
70
5d
6a
83
9c
83
8a
9b
96
71
74
74
7d
78
82
7c
82
7f
8b
7b
84
7a
7d
85
81
80
97
5e
75
7d
8c
8e
82
93
84
71
8d
81
7c
7d
7c
86
76
7b
87
79
81
80
88
86
80
80
7b
86
7e
44
74
8e
96
59
78
4f
ab
6b
72
8c
6a
8a
84
74
7e
7b
84
7a
87
80
83
83
7b
8c
7f
82
73
5a
81
6a
96
70
7b
5e
93
7a
67
76
7a
6a
7f
7a
7e
7f
7c
86
76
83
75
8a
7f
74
88
78
75
47
75
89
7b
65
5d
73
87
72
8c
93
85
79
80
82
7a
86
7e
81
81
76
7e
7e
7e
88
89
7a
98
54
81
8d
95
8b
6b
78
84
63
73
74
7e
7a
86
8b
85
84
87
85
84
7c
77
89
7b
81
87
72
46
85
7b
cb
77
89
7a
7b
80
9a
64
75
6e
87
78
86
79
86
86
81
7f
85
87
7f
83
7c
6d
9e
56
7f
90
c5
6d
80
56
90
9e
6a
8e
86
84
79
87
7e
83
76
89
82
87
81
8b
82
73
8d
7f
9a
5b
84
7b
7a
8e
78
6c
83
9b
67
95
88
7c
8a
74
7f
80
84
7d
8e
80
87
7c
83
7e
7f
70
74
53
81
7c
6c
7e
76
89
99
a5
91
7e
5e
85
7f
7e
76
7c
84
85
89
7c
7e
7b
87
8d
80
8c
82
90
8b
a0
69
8d
95
6e
82
7d
51
71
8f
80
80
7d
84
82
81
89
80
86
85
88
76
5d
80
78
68
7c
75
6e
96
87
92
89
7c
8c
7c
7b
7a
7b
80
74
82
7a
86
7f
7c
87
73
87
67
8c
89
72
65
9f
67
80
6a
82
81
88
85
92
80
87
7e
8a
78
82
7e
89
86
85
83
88
72
7c
81
85
72
94
7c
84
65
90
71
9c
6f
6c
65
74
75
6a
83
7b
85
77
78
7c
73
8b
82
73
85
84
6f
7c
76
83
71
8e
85
89
8b
a1
81
7f
77
80
62
83
8f
7d
8c
86
78
7d
7e
7f
89
7f
7d
78
7d
76
79
8b
79
87
8e
79
95
7c
6b
82
5b
91
63
83
70
90
88
85
87
84
7f
82
78
85
7e
8b
87
85
76
9c
6e
94
76
9f
91
a0
76
7c
a3
81
83
86
8a
88
7f
81
76
7c
7a
85
81
80
79
8a
79
83
99
69
6f
b9
96
79
75
79
7d
7d
84
8d
9d
81
81
8d
84
84
75
78
7b
86
78
82
83
88
7f
7f
86
71
94
81
ae
71
6d
91
80
73
54
74
88
85
82
7b
85
74
7d
82
76
70
89
82
8f
7c
7d
7f
75
99
5f
6f
8b
a1
6e
6d
81
87
69
74
7c
7b
89
79
85
83
7d
7e
79
81
81
72
94
81
95
78
83
72
81
7c
a2
b6
6c
7e
96
89
78
6c
81
90
61
7e
8c
77
7a
80
7d
7b
79
70
77
4b
69
68
81
66
81
80
88
7c
7e
76
84
83
90
94
65
83
7a
74
6e
7e
83
65
61
78
80
72
5d
6c
78
93
6c
62
79
7f
93
6b
73
8a
8e
88
6f
8f
86
81
7d
7d
72
92
7f
7c
77
8a
75
85
7a
74
79
7f
8e
6b
76
94
75
86
92
64
93
88
7b
5f
64
9c
63
84
9f
70
60
76
96
71
9c
8b
97
75
92
80
69
72
71
7e
92
9a
65
5f
6f
9f
86
6b
90
64
8d
7f
6e
8b
81
68
94
58
81
a4
7b
8e
97
8c
8c
6d
61
76
6f
99
9b
72
6e
78
93
81
8a
94
9e
85
8f
a6
98
90
7e
86
90
73
8a
99
61
ae
83
59
a9
c1
97
70
90
78
96
86
48
8a
83
79
84
84
98
85
96
87
92
7d
88
8e
93
79
87
73
8d
89
50
8f
7f
67
69
64
99
62
60
64
7f
ad
8c
84
8e
90
80
80
7c
88
88
8c
79
8a
86
87
73
78
88
2b
a2
55
4a
8d
9f
87
96
90
81
7c
80
76
77
83
82
8f
7b
8c
78
99
7f
89
78
7d
83
7b
92
73
9e
69
4a
87
7a
79
81
8a
7c
89
87
81
85
7d
81
7f
79
88
81
87
86
87
8a
80
7f
78
72
73
a0
50
91
6d
83
a8
9c
80
86
84
74
7e
86
80
7d
74
8e
85
7b
8c
7b
89
7f
6b
89
90
64
6f
a8
61
84
65
7a
7f
64
93
73
80
84
78
74
83
80
7d
7c
80
86
75
81
72
8e
8c
69
8a
93
69
51
5b
7b
7e
73
62
86
7e
9a
76
7f
84
7d
89
82
7e
84
7b
7f
80
71
7d
85
82
81
8f
87
85
89
98
70
95
88
7d
a2
6e
87
98
7a
78
74
81
90
83
82
8a
77
85
7b
7f
8a
87
82
79
7d
61
5c
c4
6a
89
70
2b
87
8a
8e
87
7b
6e
88
71
85
7a
6e
7c
70
77
81
88
85
7c
86
80
8c
71
95
17
3a
6d
7a
84
64
91
76
75
68
85
6f
8c
79
81
6b
7c
79
8c
82
85
8d
77
87
90
68
8a
9a
9f
19
9f
89
89
88
50
7d
76
6a
7e
7e
7d
84
7c
82
7c
89
72
86
83
8a
7a
87
6c
84
a1
a4
a1
b7
97
50
6c
7d
82
68
87
84
71
8a
85
7b
7f
81
80
88
79
79
84
83
85
79
93
82
7a
88
b5
d0
83
66
92
84
7f
96
8f
81
78
8a
80
88
78
82
87
80
84
88
87
88
8a
8a
78
7e
97
82
80
ad
69
69
9f
96
76
86
7e
87
78
7c
79
86
80
8c
7b
7d
84
8e
87
7f
82
8b
80
8a
85
97
b3
a4
87
6c
90
9c
85
7e
87
7e
8c
7c
84
84
8c
85
7e
87
93
6c
85
76
81
78
86
85
7a
aa
83
eb
67
88
7d
73
78
93
88
9b
7e
89
86
77
85
71
88
89
7c
87
7c
79
77
7c
8f
84
94
89
6b
85
8a
62
7d
77
7d
87
75
85
83
8a
90
7b
7d
82
88
89
77
8b
84
73
7c
73
8f
80
7a
9f
a7
70
60
68
9f
8b
91
8d
89
79
91
90
7f
8e
87
85
7d
85
83
72
85
7f
8c
81
92
80
90
86
7c
8c
8a
78
91
81
74
7d
7f
7b
8b
7e
82
75
7e
7b
8b
75
7f
80
7f
90
7e
92
73
9e
7b
a4
98
61
80
76
92
86
8c
8d
82
86
89
8b
83
77
7f
82
85
78
82
7f
8b
70
7f
76
8f
7d
86
5f
01
a0
96
a0
87
8c
96
7d
8d
80
7d
85
78
81
80
6d
73
82
8a
89
91
84
80
85
92
97
79
8f
41
6f
65
9b
6f
46
89
75
76
7e
7c
8b
7f
7f
8a
77
92
7b
7a
90
8a
86
7f
a3
70
69
d9
8d
b4
6e
70
69
82
6a
56
05
b0
77
78
6b
91
73
88
74
81
86
8e
86
78
7a
7d
6e
4f
44
13
47
b1
94
8a
81
89
9b
9b
79
77
54
6f
6a
7a
44
87
65
2e
3b
2c
4d
6d
69
65
5d
4e
7c
60
94
9b
76
7b
89
85
74
8e
76
94
6e
98
8a
7c
8c
5d
60
82
a0
8d
9a
93
85
94
94
60
75
60
a1
72
8d
98
79
7e
63
6a
77
66
84
9d
9c
99
9b
8a
73
73
93
80
6f
74
67
65
7b
97
8c
68
7b
64
6c
8c
64
76
9c
91
90
8c
6f
7c
77
87
7e
5c
7e
70
95
7f
67
98
8c
6a
79
7b
77
90
6c
7e
9e
9e
72
8d
78
8d
7c
76
72
94
63
9c
86
96
78
9a
5e
7d
87
6e
7b
89
81
6d
73
83
85
90
68
98
79
78
5d
75
98
85
77
9a
79
8c
8a
98
80
88
89
8c
8b
8a
81
95
79
6a
0a
58
88
6f
67
95
8c
76
60
8f
83
a0
87
88
83
8d
7f
7d
82
81
88
8c
79
8e
8a
82
73
9c
56
9c
7d
91
87
89
75
77
8b
89
96
7e
8a
77
7d
83
7f
8f
7d
88
7c
94
83
85
7f
79
80
7b
83
54
6c
73
78
71
9a
89
99
84
7c
8d
81
84
88
7c
87
78
81
88
81
88
85
8e
87
84
8b
7d
81
8c
58
78
9d
70
a9
85
7c
80
8b
82
7d
7b
86
84
77
7d
84
89
7e
8b
84
84
84
74
7f
82
81
7a
57
76
8a
65
8b
7d
85
85
78
85
7d
78
6e
84
80
7e
7d
7d
86
78
7b
7b
88
83
73
92
79
82
50
7d
65
81
6d
93
81
91
87
87
82
88
81
81
7f
79
84
80
7d
80
77
7c
85
85
83
90
84
43
88
7e
95
7a
88
5c
84
78
80
8d
77
74
6e
7e
8a
7f
82
84
7e
83
78
7e
8f
89
80
81
8c
49
89
77
73
78
8c
85
a8
96
83
8b
74
78
88
77
88
7e
7e
85
7a
7a
8c
89
80
85
81
85
8e
1d
b8
74
8f
94
6f
79
7e
74
83
71
81
7f
77
8f
80
86
6e
86
81
8e
80
8b
89
7b
84
88
57
3e
99
7a
73
64
90
83
7f
7b
92
80
79
82
80
7d
82
80
82
80
8c
79
85
86
8a
7a
7c
65
89
86
6a
79
5d
63
85
85
8c
77
76
86
76
79
8d
83
7b
7e
84
7e
89
79
7d
81
80
81
85
8b
84
7e
39
72
6d
6f
a2
85
85
7d
86
88
87
72
85
7e
87
7c
7f
86
82
82
89
88
88
95
88
85
8e
81
33
88
7b
91
6b
c5
7d
8a
87
74
7b
74
7d
77
85
7d
8d
7c
7f
80
81
8d
7c
89
84
80
80
96
35
78
84
8f
97
66
94
8f
81
83
82
84
75
7a
7d
85
7e
7b
7e
92
78
81
80
7b
83
85
89
79
01
7e
7f
6b
85
a6
7f
74
87
88
8a
7f
81
7c
76
73
71
84
8c
82
84
7a
77
7d
7d
93
89
7a
3b
69
85
66
66
7f
87
81
90
75
7f
80
87
88
78
7e
79
86
83
75
8b
87
79
7a
75
8b
7e
7e
63
71
7f
89
81
96
8b
90
87
87
79
8d
8f
7d
82
80
82
81
82
83
77
84
82
85
84
8f
8f
7d
27
af
95
89
6a
a2
8c
82
7f
84
7b
91
75
7f
73
7f
79
87
79
80
78
85
87
84
84
7e
7b
7a
39
80
68
7d
94
72
8e
88
86
7f
85
82
87
7e
78
7c
81
85
7b
7f
86
82
78
7d
75
8c
92
4d
7d
a3
8d
65
72
b2
9a
8c
8d
8e
85
7f
85
7b
83
78
77
71
86
83
8b
91
79
7f
7c
79
78
80
3c
8e
71
7e
7e
78
c0
9b
76
88
88
7f
85
89
7d
84
80
8c
7b
7f
8d
82
78
82
9e
7d
99
3c
5b
64
77
72
80
98
3c
7c
91
8f
79
90
91
93
8c
85
86
83
7e
95
7d
7d
9b
76
58
9a
53
6a
8e
67
90
6b
9b
7b
73
5f
b6
7a
86
83
8b
87
8b
86
8c
8e
87
89
95
82
86
95
92
96
69
8e
6c
82
84
80
64
8c
71
88
8c
89
8b
88
88
83
74
91
8f
76
7a
53
86
77
72
7c
78
62
7f
64
92
69
82
9a
86
75
5c
7e
83
85
95
88
83
61
99
5e
80
5c
9f
6c
8c
69
82
84
6b
86
6f
6b
80
75
a1
9a
61
67
a4
78
6f
75
47
4b
53
86
6d
68
4e
9d
21
34
4f
8a
3f
4c
5f
5f
7f
75
88
6f
84
6a
9f
80
42
36
7b
5d
4e
72
5f
35
3c
70
8e
99
7f
66
7c
47
74
41
6d
a3
0e
53
58
83
89
77
97
8a
1c
4f
6e
2a
95
7f
21
9f
74
6c
40
74
83
76
9f
64
a0
67
88
85
88
67
6d
67
67
5b
60
54
6b
a3
7b
5e
b6
74
82
89
76
78
81
7c
7d
8c
73
82
88
96
83
aa
9a
a8
8f
64
72
74
91
82
b0
8d
83
87
74
87
80
7f
80
96
74
8b
85
8c
87
88
85
72
79
80
7c
80
86
68
7b
7d
74
3d
83
7e
8e
76
7d
89
8b
6e
84
72
75
86
74
81
84
7e
8a
7b
8a
74
88
87
93
9b
50
95
43
4a
65
76
88
81
87
74
89
81
72
73
82
81
7b
8c
82
82
8a
6f
87
8e
8a
7e
7f
93
0f
67
5e
d7
7c
9b
7f
85
83
7a
76
7b
88
72
7c
71
8a
6b
76
7b
7d
87
7e
7a
7f
82
a6
5e
5b
62
8e
af
5d
63
89
87
81
82
7d
7b
8a
7a
88
74
72
82
73
77
89
7d
7b
92
94
82
77
ac
3f
91
71
6b
72
81
6f
79
82
7e
78
80
8c
85
7d
77
80
7a
77
7b
8c
89
83
83
6c
88
7c
30
9d
5f
41
97
8b
97
8c
9c
6f
73
9c
8a
87
8f
68
7a
7e
83
8c
8c
7e
7b
79
7f
7a
5f
6b
6e
56
74
82
84
7d
56
8a
7d
94
93
6e
8e
89
8a
75
72
82
96
7f
88
8e
7a
9a
8f
82
a5
73
4c
34
9a
81
8c
70
8d
78
86
71
84
88
8a
89
87
79
82
94
78
89
8c
8a
83
8c
6e
8c
6d
9b
ac
6c
75
b2
4b
9b
9d
99
96
7f
7b
92
83
83
82
7d
7c
8e
81
83
7f
95
83
82
97
74
7e
a0
10
55
68
a4
ca
75
87
7c
90
8f
73
8c
88
8f
79
7a
88
83
84
97
8a
87
8e
7e
95
8d
50
75
b9
3e
8a
76
65
88
66
84
77
84
86
7c
76
7f
85
85
7e
88
8a
84
8f
7c
91
91
6e
87
7b
82
83
01
66
9c
a3
68
8d
80
81
85
89
84
77
87
88
86
82
88
95
79
8c
78
7f
7d
93
84
5d
92
73
01
39
82
9d
72
7a
7f
8f
91
7d
87
7b
77
7e
7b
90
88
85
7c
7a
70
81
79
71
97
85
4f
6e
8d
71
42
79
a0
81
94
6d
81
7b
82
81
83
6d
79
8c
88
6f
88
82
77
6e
80
70
72
79
5a
73
6e
8c
64
89
8e
8c
60
98
65
7c
8a
70
88
81
7d
82
7b
91
75
88
70
7d
80
7e
7a
7b
50
55
87
6d
93
8f
68
76
b5
57
60
9a
7e
7f
70
7d
6f
82
7f
6e
7a
7d
8c
86
81
84
89
8a
5f
40
6d
64
7f
94
6b
28
62
82
70
7d
7b
7b
6e
78
7a
83
6c
85
7e
7c
77
68
86
94
99
96
2c
bd
5e
9d
8d
6e
74
34
66
83
85
80
84
7e
7d
79
6f
72
89
85
94
93
7f
78
88
65
6a
97
a1
b9
81
71
9e
5c
71
10
7d
9b
7d
7e
89
80
82
84
7a
86
76
7b
88
83
8c
7d
91
8a
9f
60
f9
7f
5f
95
5f
72
9a
b7
8d
6b
7a
74
8d
93
8c
72
86
82
7b
8a
7b
7e
73
7c
75
81
92
46
95
61
83
a0
8e
a2
4a
86
98
b6
13
a2
67
78
73
7f
7b
81
77
78
74
6e
8d
32
40
70
86
6c
92
86
8e
91
a4
7e
88
78
9c
86
68
63
89
70
84
6b
4b
4c
7c
43
69
58
66
70
73
72
86
5b
a2
8f
5c
5e
66
5e
7a
75
77
9f
78
7a
6d
70
90
97
6e
86
8f
9f
9f
65
90
77
71
99
85
93
94
89
5e
79
9f
63
92
64
9d
6f
6f
7e
75
81
6e
8f
68
7f
6d
99
74
69
7e
74
8b
68
8a
62
97
62
9d
8d
79
95
25
79
8c
7f
68
60
95
63
6d
5a
50
64
8c
60
94
91
85
89
7c
99
54
57
5d
82
87
74
71
93
d8
ed
59
4a
42
88
85
99
7f
95
7f
86
8d
86
92
85
84
81
88
97
77
76
a2
5e
79
a0
8a
5d
a7
18
59
8f
9a
6e
80
85
83
7d
78
80
8e
89
7a
8b
89
82
7f
8e
8c
a4
86
9a
60
6a
73
6c
a3
55
82
75
7e
7f
7b
85
7f
8e
7d
88
74
95
83
87
79
7f
85
7e
85
82
a0
82
8d
78
81
99
25
9c
8b
86
86
7b
88
76
88
7b
7a
8a
80
83
89
89
91
85
85
80
7e
91
97
90
86
70
7b
8d
51
55
7d
7d
7c
81
85
88
74
79
83
8a
76
93
81
88
80
6f
85
93
86
81
9c
79
88
67
83
6f
4c
6c
7a
82
7a
78
74
84
81
7d
7a
7a
87
74
7b
73
8b
8c
73
89
8a
98
8e
7b
79
90
77
60
3b
7c
75
91
78
86
7b
7e
8b
7d
88
7b
70
7a
71
7b
84
80
8a
8f
8b
97
a5
95
83
96
6a
78
38
96
80
7f
88
79
7d
8b
8d
89
85
87
7d
7f
71
7a
8b
84
84
7c
87
9c
7e
94
47
72
69
97
30
98
87
92
75
7d
90
7c
8d
80
83
86
71
7b
87
88
7b
78
7b
66
85
b3
9e
8d
97
62
57
8a
9a
6f
7b
8b
7f
85
75
92
85
88
71
81
81
8a
7f
86
87
72
86
7c
6e
1f
ba
fc
53
9e
64
74
7e
8b
91
73
7f
82
82
80
85
84
84
78
8d
71
83
84
90
80
7e
75
80
5c
3d
b5
8b
a7
7e
6e
7f
7d
7c
95
77
78
92
8a
7c
7f
81
83
86
76
7a
7c
7f
85
89
96
7a
ab
27
45
52
89
75
7c
83
79
76
88
89
73
8b
81
88
7c
80
7f
7b
82
88
94
85
8f
87
77
8b
98
8b
63
81
7e
66
53
85
70
8c
74
76
79
74
79
81
7d
89
75
7f
7b
81
82
7c
87
7d
89
87
79
8a
0b
8e
81
8d
6f
9b
8d
7d
91
7d
87
78
7c
7e
82
7a
77
84
95
79
8b
7d
83
86
80
86
87
86
a0
87
9a
7c
44
7b
7c
8a
85
95
7a
85
7e
7a
7b
73
8d
89
7f
85
78
77
79
6e
8f
8d
82
53
98
74
77
67
af
68
8f
87
82
80
85
87
8c
79
84
78
84
88
73
86
86
72
81
7a
89
7c
93
9c
5b
84
67
8f
9e
8a
7d
89
7e
72
92
90
7e
87
85
85
7f
7f
85
79
83
84
7d
7b
95
8c
60
91
33
ab
9a
60
7f
83
8e
88
87
7d
93
7c
80
76
7f
77
8a
7c
7a
7a
80
7a
93
8c
83
85
78
97
6c
7f
7e
a1
9a
76
84
7f
78
85
80
89
7f
76
7e
81
8c
79
84
81
88
79
6d
79
82
a8
7e
75
b9
65
91
67
90
a7
90
8d
91
79
84
81
7f
80
81
6f
75
85
89
8f
85
82
88
7c
91
84
80
aa
b1
90
86
82
6b
8a
88
7b
7f
82
7c
8a
87
7c
88
81
8f
80
7a
91
8f
7e
87
8e
72
5a
9b
01
43
7a
71
68
87
b4
bc
7d
81
88
78
9b
8b
93
7f
91
7e
8a
8f
89
81
9e
5d
8c
c6
8b
ee
6c
7a
70
80
8b
89
9b
94
6a
63
3a
6a
8f
72
9c
90
93
86
9c
79
93
7e
93
84
ad
7e
67
3a
89
92
94
75
65
92
83
7a
6e
65
84
83
a1
7b
a3
8e
9d
57
85
88
84
66
81
47
66
59
58
7e
69
7d
a1
99
76
6e
8d
79
a1
65
75
8b
92
84
92
7e
94
a0
63
71
68
a0
9b
6f
87
9e
6e
a0
8a
9d
6b
62
a0
59
81
83
98
a7
6a
a8
82
7a
8a
a8
83
60
83
85
98
86
ba
b7
81
86
7c
5b
94
9f
a2
97
62
68
a6
88
8d
9c
8e
8d
8e
b2
89
90
86
8c
87
70
8f
99
78
98
a5
8b
b6
54
6d
89
88
64
6d
88
b6
8d
52
b1
97
98
77
8e
96
86
8b
7e
8d
84
90
7f
8f
7b
82
95
89
9e
3b
de
69
8a
9e
74
7a
7b
a3
78
97
7e
7c
8c
72
76
7c
7e
84
8b
7e
7e
84
89
79
9a
9d
70
74
7b
b2
8d
89
7a
41
75
67
88
68
86
72
91
6d
8c
6e
93
72
93
7f
8f
82
75
89
6a
8c
8b
89
a8
ab
a4
73
74
3f
9a
84
73
8d
79
84
68
8c
76
74
82
80
80
8b
80
88
83
7f
7b
8f
84
89
75
a6
6e
91
61
58
93
90
6e
83
6d
87
7f
71
72
84
89
79
89
78
83
81
61
8e
77
71
a7
82
8f
7c
5a
7c
81
01
63
7a
82
7a
7a
72
7d
80
74
77
70
7a
6e
82
68
83
7f
6f
9e
67
75
7d
78
43
8a
a4
4d
5f
bd
80
76
7e
7a
7a
7b
80
7a
80
7d
72
6d
5f
6b
82
8c
83
7c
8c
85
69
75
74
70
9f
54
3d
6c
76
8d
7f
7b
6a
89
8b
81
85
74
7e
7a
6d
7a
7f
7b
84
71
7b
8e
6b
7f
75
8e
8c
77
46
88
a7
7b
74
74
9a
7a
8a
82
80
87
62
82
7e
7e
82
84
82
7b
89
6f
68
7d
b7
8b
5f
85
6a
7d
63
7f
89
91
78
8e
8e
85
69
82
7b
88
85
8f
78
70
8c
9a
90
98
7a
25
6d
85
9d
5b
41
8c
9e
9a
6b
83
82
87
7b
81
7f
77
8e
76
81
7f
95
78
95
74
9c
88
a3
55
83
8d
84
74
4f
50
9a
98
7c
73
97
8e
85
7f
7f
76
8e
7c
71
85
83
85
80
9d
7d
94
8c
79
67
77
94
9a
3c
50
67
8a
91
7d
89
88
8a
7c
86
8e
7c
81
92
8c
80
94
92
7a
92
70
8d
5b
77
91
67
8b
66
94
8c
7f
87
7f
83
76
8e
82
86
7d
81
84
7c
8e
7f
82
8d
77
76
8d
8e
84
80
a4
84
68
77
50
9b
7b
7a
99
7f
8d
8e
8a
85
82
7f
96
78
87
7c
87
7a
93
8d
7c
a5
5e
3b
66
8d
84
a4
7b
6c
80
a5
7d
8d
80
70
8e
77
88
8d
7f
86
7f
73
78
79
7e
81
89
89
7c
55
a6
87
95
1f
8c
8a
7d
7e
80
8e
91
89
7d
7b
8e
8a
74
90
85
7c
78
70
9e
80
74
8b
65
80
5d
62
6c
1a
76
83
76
79
8d
93
8e
83
9a
7d
8c
84
83
73
87
73
8f
8d
79
87
79
8a
a3
8b
59
98
5b
6a
78
68
7e
7b
96
84
7f
78
87
7c
92
76
85
7a
8c
83
8d
73
94
7e
9b
82
91
94
86
68
83
86
43
80
40
8f
7e
8d
87
77
79
8e
79
88
7a
84
80
6b
74
8a
66
5d
11
6b
b0
88
5c
a5
86
7c
9e
77
5d
56
7d
7f
78
75
88
68
73
85
84
8c
91
85
7d
65
99
59
3b
83
64
86
87
60
65
9d
72
83
9d
73
4b
49
44
39
7c
79
72
7b
83
83
98
31
a3
2a
79
8e
7a
89
81
9e
96
78
76
9d
63
96
7f
85
83
98
61
99
ad
60
47
77
25
44
66
5b
90
50
76
72
7d
67
7a
95
80
7c
83
76
7a
8c
a4
81
89
84
82
69
72
65
71
74
56
9d
60
85
75
8a
57
79
75
69
8d
85
82
86
78
68
74
69
5b
70
7a
5b
6c
7d
6d
89
90
8d
85
85
90
5b
99
7d
5d
8d
61
5a
78
87
92
77
84
95
7e
77
95
7f
6f
6b
7a
6d
80
6f
94
7d
82
77
79
69
8e
69
7b
68
74
6c
80
95
80
6c
91
6e
7f
8a
7b
68
89
71
67
76
70
62
81
61
64
71
81
8a
97
88
8e
74
82
88
7c
7f
8c
7d
6b
6d
68
88
75
77
80
85
64
87
82
66
69
75
5f
7c
75
78
7f
7a
7c
93
7c
80
86
82
71
96
8b
7f
8c
76
6c
82
68
74
7b
79
62
57
71
4c
76
6f
66
7a
3f
47
43
67
98
7f
6b
94
6d
92
8e
d2
96
49
30
4f
71
61
10
75
85
81
75
7c
6e
49
6d
6d
4d
8e
73
72
78
85
92
70
8e
6d
6d
90
42
ae
84
80
7e
89
80
78
90
7d
86
79
90
7a
87
74
63
6b
8d
23
89
80
8b
93
94
93
85
a8
7f
85
8e
7d
8e
87
7b
8d
7c
79
8d
7a
86
89
88
8d
80
8d
7d
6f
82
5e
6e
73
6d
7f
8f
94
85
7b
85
87
71
89
86
76
7c
8b
7d
83
8b
84
89
84
76
89
88
89
77
8d
6a
97
2f
b3
86
81
83
7d
81
87
84
77
7f
89
7c
7d
80
88
7a
7b
80
83
89
78
88
84
7d
6f
6a
86
77
9b
82
87
85
89
89
81
80
81
80
83
88
82
85
7b
7e
7f
7e
88
7d
81
8c
86
96
90
67
ca
86
86
90
7b
86
7e
89
80
7a
7d
80
8a
7c
88
82
84
88
78
7e
8d
8c
85
81
79
67
96
82
b4
90
5f
9e
8b
8c
87
88
7a
75
8e
87
85
84
7d
8d
7c
81
8a
8e
7f
86
7f
8c
7f
74
54
48
e9
95
8d
98
77
80
85
79
8a
94
74
86
85
7a
68
80
87
8f
89
8a
8b
7b
87
8a
87
6f
8d
94
ff
95
9b
9c
8f
8a
7f
8a
76
7b
7f
80
81
75
77
7e
8a
7c
80
84
81
7e
8e
78
75
94
92
6d
78
8d
83
b0
85
90
92
87
7a
7e
8a
80
7d
70
82
7d
83
80
87
82
93
87
7a
88
8e
6a
7a
12
96
6d
6d
77
97
77
7c
88
8a
6f
80
81
83
74
7c
81
86
76
8b
8f
7c
8f
88
8d
8a
7b
72
65
86
99
60
77
71
7c
7f
7e
86
7f
7a
7a
76
7c
8b
74
80
86
89
88
81
86
83
7d
88
78
4f
62
3c
7b
81
6c
81
83
82
7f
7c
86
7f
73
7d
8b
7e
82
85
8c
73
85
7b
85
7a
88
7e
92
92
ac
36
af
92
af
80
7f
89
7d
8a
7a
7d
87
7a
73
7b
88
84
82
85
7f
6f
7f
7b
8e
70
72
71
cd
76
95
aa
c7
95
8f
76
7d
73
80
87
74
7f
82
74
86
83
74
82
7f
7f
7f
77
82
66
96
5f
67
79
90
77
84
56
62
78
6f
70
8b
82
83
7e
86
7e
81
7c
7f
70
73
7a
6a
7c
83
7d
87
69
83
6a
84
8b
74
1d
88
84
7b
65
8c
78
7f
76
7d
76
7e
78
7e
7b
82
76
7d
86
75
7a
7c
9c
4c
8f
8d
94
70
3a
62
90
7c
88
8a
85
7f
70
83
7b
89
77
7f
7d
82
84
77
77
80
4f
7c
99
4b
84
8e
7c
54
35
8b
7a
85
88
6c
81
77
7c
78
72
71
81
7d
88
83
71
68
64
89
64
95
7e
74
82
84
96
93
9d
79
8d
85
83
85
7e
84
7b
81
7f
83
7e
7b
88
7c
7f
92
84
74
80
6d
60
6d
76
6d
7e
5d
aa
96
85
87
7c
83
8f
8c
90
81
83
87
7c
8c
7e
7e
7f
7a
87
87
78
8a
7b
6d
6b
7e
96
85
72
8f
80
84
81
8f
89
87
85
87
8b
87
87
83
89
87
9b
70
98
9d
6f
3c
87
96
82
6e
84
6c
8f
94
85
8a
88
88
83
91
90
81
9a
8c
8d
82
a3
8d
95
8c
ae
81
bb
68
98
87
94
81
8d
91
70
94
6a
68
91
8f
7a
93
95
91
69
92
5c
7b
67
81
64
73
6c
8f
6e
9a
8d
7c
5e
6d
a4
7c
9f
5e
96
93
5f
8e
92
8d
80
78
5c
73
5f
85
53
75
8f
94
72
7c
81
7a
70
77
95
6a
9d
a5
98
5d
90
68
76
a0
7d
51
66
5b
55
7d
55
29
81
a5
3f
9f
70
7f
65
5a
84
a4
93
5c
6c
70
6a
72
59
69
3d
81
8c
8c
93
7f
95
74
8b
87
87
89
85
76
86
86
ab
38
82
16
85
7a
69
91
71
5b
4a
7a
8c
87
83
92
7c
7d
78
85
89
8e
7b
8b
8a
8e
79
93
8a
9c
89
8f
67
74
7a
95
61
8c
76
75
8a
70
7d
7f
81
91
7d
8b
79
94
85
84
7b
7d
7e
7f
7c
82
91
8b
57
76
9d
63
6b
8a
79
87
85
81
85
75
86
7c
7a
8d
80
85
8b
87
94
83
86
79
87
8a
9f
87
7c
7f
4f
7f
50
86
80
7a
7a
7b
86
86
71
76
89
83
81
8e
7e
8a
82
6e
89
8f
8b
7a
8d
8a
59
65
45
65
8e
91
79
86
81
74
71
82
82
7c
81
7b
86
77
7c
75
8d
86
70
90
80
99
88
73
9c
6a
83
55
72
74
85
90
7e
8f
7d
80
87
78
89
7a
72
7c
74
78
83
84
87
8e
8f
88
a4
9c
3b
65
56
73
76
98
80
8b
80
74
76
8a
90
89
83
83
79
7d
72
80
93
87
85
81
82
7f
77
7f
82
73
7a
5b
6c
86
8a
93
7d
81
95
7c
8d
81
7e
8b
74
7c
85
86
7b
83
81
87
80
8a
6c
c5
68
94
98
51
a5
7c
85
7b
80
84
77
8d
81
85
6e
84
81
90
87
8b
92
74
94
90
81
93
6b
89
9d
67
67
51
6e
79
77
80
81
86
82
7b
84
7f
88
7a
95
75
83
86
90
87
7e
7b
94
81
a4
7c
a4
6f
60
8a
6f
72
94
99
69
6f
8d
85
7f
80
84
80
8a
7a
7c
7f
88
7d
8d
81
6f
74
a2
bb
78
7c
8e
5d
79
7a
66
80
8f
71
8b
7f
85
7b
82
89
80
81
89
8f
88
8d
84
80
7e
76
84
01
9f
96
63
61
90
60
90
7d
7a
7c
7a
78
84
81
8a
7c
81
86
84
88
70
84
7f
76
8a
7c
84
60
6d
69
8c
9e
a2
9b
6e
7e
87
8d
81
7f
83
8e
81
7f
7f
99
6d
81
7f
7e
80
8b
84
98
58
74
94
66
64
5f
01
70
88
87
90
7c
8a
85
7b
7d
70
8e
8b
7b
81
7b
6f
7b
72
88
7f
7f
7e
6f
6f
89
5d
67
7c
81
8e
78
80
81
8c
8f
78
7f
79
84
83
72
8c
87
74
7b
6b
92
82
7a
5c
6d
73
6a
72
5a
7c
86
83
7e
77
90
8b
80
81
86
83
7e
83
81
72
7f
84
80
84
93
8c
7d
95
53
7d
8c
8c
6e
6e
81
7a
8b
79
92
7e
7b
73
7d
79
8b
76
7a
78
82
7e
8d
87
7e
85
6f
79
5c
a5
78
7f
5c
85
85
8e
7b
86
81
87
80
73
7c
80
89
78
7e
83
83
71
6e
7e
8b
8e
8c
78
5e
60
5b
75
79
76
8c
7e
8d
7d
83
82
7a
7e
7e
72
6d
8b
86
91
90
82
76
86
8d
8f
93
65
33
69
9e
9c
80
54
70
70
7d
85
7f
88
84
7d
8a
7d
8c
7a
82
84
8f
8a
84
99
6e
91
3c
43
8a
7c
8e
96
3b
63
74
59
92
6e
88
87
95
8e
7b
82
87
81
92
87
79
92
80
6b
62
64
20
63
65
87
8a
61
6b
68
80
46
40
7b
95
82
6e
89
8d
87
88
71
6e
87
81
73
48
88
7c
9d
84
9f
6a
80
5b
75
78
88
80
78
60
85
a2
74
73
9d
78
87
5b
71
7b
97
88
61
5f
80
82
70
85
9c
90
65
b0
5e
97
93
9b
92
9c
a0
7a
94
54
5d
63
5b
5f
98
93
54
6f
ac
93
94
61
8e
a0
5e
56
9b
ab
a4
5a
6e
99
71
9d
5f
73
9d
75
57
74
78
57
07
4a
22
8c
9a
56
94
9c
a7
af
62
a4
81
9d
68
96
95
76
6b
90
78
82
4a
73
84
76
92
4b
8c
55
32
5d
68
6e
9e
59
93
76
ad
95
77
69
82
9a
86
78
58
8b
9a
5b
81
5b
65
76
27
3b
24
4c
34
b0
4a
6b
5e
2d
79
7c
69
79
91
6c
83
a9
5d
6b
81
85
78
5a
1a
98
70
7a
7d
78
8c
84
73
8d
60
a8
16
58
4f
56
4e
85
ac
9f
ad
8f
5c
43
6e
3a
7d
82
73
6f
8d
90
87
7e
85
87
82
83
79
71
6b
6f
13
5e
63
43
5f
96
69
65
96
7d
01
8c
75
88
92
6d
91
78
79
99
78
91
91
90
94
84
90
71
85
7b
9b
51
6a
62
3c
66
8f
3a
5e
7c
78
6c
87
8a
6e
7d
95
84
86
96
83
8a
86
6b
88
90
90
6d
80
62
5c
2e
2e
66
2a
9b
8f
8d
70
86
6d
7c
86
6c
82
7f
8a
76
78
7b
88
86
7d
83
7e
8e
a4
32
7d
75
7a
5e
93
64
78
93
89
7f
7b
85
8b
7f
8f
7d
7c
76
75
78
8a
83
74
98
83
94
61
3f
4b
8d
67
12
88
90
7a
91
7a
76
73
82
94
86
7f
87
7d
83
6a
7a
98
90
89
7f
86
5c
ae
71
48
81
31
6a
89
7e
8a
96
77
7d
9b
8a
8b
8f
78
89
79
80
96
94
7a
8a
7d
91
70
84
66
97
45
ad
67
ae
7a
83
85
86
8d
93
71
90
8d
77
6a
81
86
9a
87
92
9b
78
a0
91
a5
75
10
87
97
9d
6d
a0
66
94
87
87
75
88
80
83
84
79
84
83
98
77
8a
8a
93
7f
94
73
77
8e
88
70
9b
58
7d
99
a9
97
99
9d
74
73
98
84
7e
73
89
79
94
7e
84
84
92
8b
84
9f
73
4b
87
d0
94
27
98
1f
8a
73
74
8e
94
6c
87
87
8b
75
7f
83
89
7d
96
8f
88
97
8c
88
8d
39
7c
91
66
90
5f
91
69
89
89
75
80
85
74
74
86
79
8a
77
7f
8d
8d
93
73
93
77
89
87
70
37
8c
49
a2
9f
5a
89
6d
80
71
84
91
7c
7f
78
95
83
7b
88
97
6a
86
78
74
85
76
86
74
b2
78
32
fa
87
a2
6a
88
7f
93
98
74
81
90
7f
64
6c
92
8b
81
89
78
5d
83
6b
8a
90
54
8c
71
72
a8
2d
7a
94
70
73
70
88
82
8b
84
74
83
6f
85
84
6b
7f
81
7e
74
75
75
72
85
74
87
7c
a4
51
57
5c
89
9c
77
5e
96
81
7b
7a
79
7e
7d
75
83
6f
80
7f
72
5e
98
85
97
a2
7f
65
85
3c
61
66
65
a3
7f
75
8c
76
7e
65
7a
68
81
73
75
6c
78
87
8a
b1
63
60
ba
43
07
a6
90
67
5b
72
c0
65
6c
81
8e
82
8c
6c
82
7a
8f
66
7b
7f
81
5c
66
6b
8d
b2
96
72
12
73
93
57
0a
f6
23
77
84
81
7a
82
72
7d
76
6c
6c
89
80
94
88
86
74
82
9b
60
c3
48
2a
aa
5f
76
2a
3e
b4
87
84
89
7c
81
8a
74
85
79
80
7c
7a
90
89
85
8a
7f
8f
b3
77
aa
35
8a
aa
53
d7
63
6e
a6
83
77
8d
94
9b
9a
7c
87
8f
76
9d
80
81
86
8d
8f
78
a5
41
dd
58
a6
97
85
90
91
c0
7d
9b
7c
9e
97
8f
8d
99
94
9f
92
92
92
8b
9d
7d
a9
93
87
e6
68
5a
8a
73
76
a5
97
7f
88
7d
ce
74
8f
90
8c
94
77
9a
80
a3
79
c0
69
99
8a
6b
2a
91
5b
61
63
