95
95
7c
6e
7c
99
71
91
72
75
68
7e
8e
8e
93
74
71
8c
66
78
83
6f
7b
7b
8c
88
77
99
70
7b
95
86
88
8b
68
6a
7c
92
59
c6
ab
c4
8e
ae
b6
be
6a
8d
72
7d
68
99
77
8a
6f
6a
95
99
6a
77
82
84
8e
a2
72
58
70
3f
5c
62
63
63
72
4c
74
7a
67
77
7a
74
91
91
6b
80
6a
82
75
89
6f
a8
69
43
97
7a
84
8d
7a
92
86
79
7d
82
75
75
96
71
83
78
7b
93
5c
77
8a
87
86
69
74
4c
6a
7c
8a
8b
74
95
7b
86
7c
81
7c
8a
87
7d
8c
81
8b
80
7a
97
63
8e
86
77
70
78
b0
4c
a1
64
80
82
98
7d
87
91
83
87
87
86
81
8a
7e
6f
8b
81
82
5a
5d
66
86
7f
6b
77
7e
82
8a
86
80
6d
80
93
7c
8b
88
74
7a
77
81
7c
85
8f
8c
7b
72
59
51
5f
9a
76
77
5d
74
8b
82
87
7f
8a
84
7f
82
82
84
7a
80
81
84
87
77
81
6c
86
76
78
65
6d
e7
6c
7c
b0
68
64
7e
7c
85
86
85
80
89
76
8c
84
82
8b
80
7a
7e
87
8d
81
7e
5a
5a
93
98
76
9f
a3
78
7f
7f
7e
84
8d
91
81
7c
85
84
77
88
7a
86
85
86
80
6e
7d
92
66
47
6c
6c
8b
be
80
8e
88
87
74
83
85
83
82
7c
7c
87
7a
88
8a
82
7c
81
83
90
83
86
80
65
68
76
f2
61
92
66
6b
80
90
83
7f
7d
85
81
86
73
79
7e
87
76
86
73
95
85
83
86
62
89
98
85
81
73
72
7b
89
89
79
7f
80
7b
80
90
7f
81
72
80
7c
73
81
85
87
81
7a
9a
6e
13
8f
79
90
74
a7
a6
7d
8d
81
8f
7d
89
81
7c
7a
82
6d
7e
84
7d
87
84
89
8c
84
87
9f
01
71
8b
87
72
52
6c
88
79
8e
7f
85
6f
87
8e
88
6d
7f
6e
7f
7c
7d
7c
8b
7e
84
7e
84
71
85
69
9a
7b
6b
7a
76
77
90
83
83
8f
7c
81
80
6b
78
7b
86
8b
7e
8c
81
84
78
a2
84
6d
79
87
6b
78
7d
82
89
80
7e
7b
7e
89
8a
85
62
76
86
7b
7d
82
8b
7c
70
73
88
78
63
4b
c3
78
94
6c
86
88
88
89
8f
77
82
8c
82
85
7e
73
79
7c
87
86
83
8f
7a
88
78
8c
94
77
d7
91
90
6b
7e
86
7b
79
7b
8d
8c
83
81
83
70
88
87
7b
7d
83
82
6b
7c
7b
8a
6c
8c
72
51
98
b2
7d
79
77
7b
7e
83
7e
7a
8f
87
92
81
81
83
84
82
89
74
8d
77
88
82
8a
7d
76
80
6c
8a
77
83
8a
8b
70
83
86
81
84
7f
88
82
76
81
7a
7a
8d
82
86
71
7b
77
87
42
86
6e
76
7b
60
94
7d
79
8a
8f
7c
7c
7d
85
83
7e
7d
85
85
75
7d
6f
73
83
8d
72
85
72
de
6d
86
72
5e
7e
73
81
83
78
84
8a
83
80
86
97
7d
8b
88
8b
76
98
7d
6e
93
7a
65
a1
c1
90
8c
68
68
4e
60
86
7a
86
70
83
7f
8a
83
85
80
7f
7a
8b
77
7e
86
80
7f
88
5f
b2
5e
73
74
83
8a
85
a2
8e
67
81
86
8e
7e
68
95
7a
86
80
76
8d
99
51
8e
67
78
61
95
6c
7a
83
83
89
6b
89
7a
7a
57
72
7e
7e
63
86
5b
7d
5b
6e
84
6c
2b
29
62
6a
4d
69
85
69
91
80
7a
6f
7c
74
87
8d
61
6c
5f
4d
6c
7a
72
78
6c
37
4f
44
17
90
4b
6f
67
7f
98
7d
96
6f
8a
6a
93
68
6d
6f
74
88
68
6f
69
92
61
8f
78
6c
84
6a
88
69
72
6c
7b
96
6f
70
8d
97
67
77
7c
67
7a
86
88
7d
67
6d
84
7f
7a
79
69
80
77
8b
7d
82
6e
68
7c
6e
80
6f
8b
9a
8c
99
98
84
72
8e
7f
6d
68
6b
8d
87
7b
71
8c
8c
71
7d
76
6d
8e
7e
92
92
91
70
69
89
91
86
68
8a
90
89
85
87
78
5e
80
79
74
b1
6e
9d
8c
93
5e
b4
92
51
63
64
71
70
74
96
6e
8c
b2
8f
7d
13
71
6c
65
7e
85
70
8e
8d
6e
8f
75
86
72
86
85
84
7d
a0
49
7b
71
69
80
7f
9a
51
a7
80
96
63
9b
7d
8d
8a
7f
85
83
7d
81
8c
80
8e
89
8b
7d
83
6b
01
6d
88
95
83
84
88
91
a4
97
73
73
79
83
7b
83
8e
82
85
87
80
83
7c
86
7a
86
8a
97
48
73
89
97
7a
61
90
a4
73
9d
77
84
7b
82
91
7d
83
83
71
73
73
79
7b
82
80
81
89
7b
34
64
8b
90
64
73
64
a0
64
6e
87
76
84
7e
75
86
7f
7b
7a
87
74
81
83
7f
86
78
78
6e
56
63
66
99
35
61
83
85
73
72
83
7d
77
89
7d
83
79
86
82
6f
8d
7a
7c
71
81
7d
83
6b
3b
6f
71
83
6b
58
52
9a
71
7d
94
87
8a
8e
80
7b
82
81
8c
8b
77
87
80
7e
7c
8a
6c
9d
45
7b
8b
87
89
6f
67
81
47
80
7a
8f
84
87
85
79
7f
84
7c
85
88
75
7f
75
8a
7a
90
3a
84
93
de
6b
84
71
7d
8f
98
4a
64
7d
75
7f
7d
8c
8c
7d
8b
8c
7d
82
83
6f
90
69
99
55
91
b0
a2
8c
69
62
82
ae
73
8f
8d
72
88
7b
7b
86
7f
88
84
7d
7a
7b
7b
7b
80
84
97
57
7e
5a
a3
83
83
56
7c
92
58
99
86
8a
87
77
81
82
87
87
77
8b
8e
70
7c
8f
8d
6d
5a
49
79
78
8f
7d
81
95
8d
bf
8a
7d
5b
8c
76
7c
79
85
81
8e
83
7b
7c
77
80
78
77
91
88
89
a1
a9
8a
95
79
a1
a5
76
31
5f
96
8a
72
84
84
86
86
84
80
8e
83
8d
76
55
70
85
4b
84
79
93
6f
71
8a
9e
7f
94
7e
7d
6c
75
86
80
85
7f
76
82
7d
81
71
77
6e
90
7d
79
56
ac
6a
9e
86
99
82
6b
66
95
7d
93
86
82
74
87
86
86
88
7f
84
82
73
87
94
7e
6f
8d
81
88
67
7f
89
73
a3
69
8d
44
7b
65
71
86
84
7c
7d
86
85
89
8a
6c
90
87
73
84
7a
7e
74
97
80
85
8c
9a
72
85
5f
65
54
80
8e
74
89
86
82
87
83
85
8d
8e
72
7f
85
80
75
84
7a
78
97
8a
93
94
88
78
5c
87
5e
74
80
85
7e
86
7f
85
7f
75
74
88
86
8e
8a
86
76
7e
76
99
76
a9
71
77
7c
67
ad
87
86
8e
94
81
84
7e
80
7b
7d
89
84
7d
83
8a
73
7a
94
6e
56
ba
99
7a
7d
7d
6f
91
8a
84
9c
82
79
8a
84
80
82
85
7c
89
8a
7e
8a
83
90
8b
84
5e
91
9b
cb
75
82
7f
7a
64
46
70
86
7c
85
72
7e
7b
84
87
87
73
88
7d
8c
6f
83
88
7d
a0
6e
76
68
b3
72
83
98
87
76
65
79
7c
88
7b
86
7f
7d
75
83
7d
81
72
90
83
94
7d
83
5f
88
74
95
9e
81
76
8d
67
76
73
6d
96
5e
82
84
67
69
7d
74
73
7d
66
6b
4d
7a
74
61
68
87
93
8a
79
88
8b
71
6e
7b
8b
81
86
56
77
3f
87
78
58
59
6e
8a
7c
89
5e
81
63
6d
69
5e
67
75
7d
95
8e
94
8d
88
8c
66
8a
8a
95
87
78
68
83
84
88
66
97
7d
6a
80
6b
93
7c
8d
85
72
74
81
9e
89
6f
7a
71
72
8f
7f
73
96
8b
6f
a7
75
a9
77
7e
75
81
7a
69
62
6f
89
86
74
8e
98
6b
8e
69
6b
71
84
7d
ac
70
78
95
68
6f
82
78
7b
a3
88
86
6a
70
93
82
6e
96
8d
68
6a
94
6f
8e
8b
83
7d
a2
75
9d
82
96
90
9d
7b
84
8c
82
7e
8a
71
96
83
47
ac
d8
80
71
9b
6f
6f
62
58
77
6d
91
8c
86
a4
88
91
7f
99
7c
85
82
81
72
89
7d
8e
7f
6f
89
9f
6a
92
7f
7f
71
63
6a
85
a9
72
85
82
8e
86
85
7e
89
7c
84
8b
88
86
8b
8a
73
6f
33
ac
62
74
74
7d
a4
84
98
80
8f
79
84
7e
8c
82
8c
92
85
85
8d
89
87
83
89
77
81
9e
65
8d
71
6c
96
6d
9a
71
96
87
7b
8a
80
82
87
8e
82
82
85
77
79
75
79
7e
87
80
82
80
7b
8f
5e
75
64
78
a1
8f
8b
8f
88
71
91
7d
7c
7d
81
8a
7b
7e
88
70
84
82
74
85
87
55
66
9c
66
95
4f
9a
73
85
87
6d
85
83
83
84
8f
81
81
7d
88
86
75
8c
78
7d
7d
7b
75
9a
5c
51
92
7b
9c
6d
80
94
8d
8e
74
7d
88
8c
90
81
7f
7a
7d
87
8a
75
88
82
7f
84
7d
77
7f
71
8e
63
65
7b
71
aa
66
85
89
82
88
83
87
81
7c
80
85
72
87
8b
7b
7f
7d
84
7f
7f
66
6d
b9
79
95
8f
30
82
88
7b
83
80
7b
7d
74
76
8a
78
6e
7d
84
77
7f
8a
70
8e
7e
88
86
85
3e
1f
93
68
85
71
94
86
6b
69
7d
79
7b
78
81
7a
7d
78
7c
79
73
82
81
86
89
6e
8c
93
8f
1d
80
98
7e
93
45
78
80
78
82
7a
7f
84
80
86
83
72
82
8a
74
87
8d
91
82
7a
9f
90
a2
b3
64
5f
66
85
7a
5f
6e
87
86
7a
7a
80
8a
87
87
7a
7c
78
80
77
78
79
84
7b
78
87
c0
b5
67
86
74
84
75
94
87
79
81
81
8b
89
7c
7e
83
82
86
83
8c
88
83
86
71
6d
99
91
85
b6
9b
73
7b
a5
75
78
81
87
6e
81
86
83
8d
7a
80
83
7c
87
7d
8c
77
77
7b
8d
84
98
ae
9d
6d
77
95
84
89
8f
8a
88
85
80
8e
8a
80
8c
76
84
84
78
89
86
83
76
7e
7e
78
9b
83
d1
72
5f
73
90
86
8b
84
86
88
83
87
83
8e
82
8c
8e
78
8b
84
88
79
87
83
83
92
91
69
92
8e
6c
68
80
7d
7c
70
81
7f
83
8d
85
8e
8b
88
90
86
80
86
77
82
74
85
90
66
a2
a8
8b
84
6f
8d
8d
87
86
7f
8d
84
83
82
85
7d
85
73
7b
87
7d
87
87
8c
79
7d
81
92
83
78
62
78
79
89
87
88
7c
8b
8b
7c
85
79
80
80
7d
89
7f
7c
8d
82
7d
7c
88
82
9e
70
a0
89
94
62
59
96
87
7d
85
7d
88
8b
88
83
85
8d
84
85
8a
83
86
7f
8a
83
79
97
66
9d
98
1d
81
90
8d
79
7c
96
7d
80
84
74
80
7f
88
84
86
7a
81
80
84
84
88
8f
84
7f
ac
6d
89
3f
75
99
6b
87
47
76
72
76
7d
85
8b
7c
7c
82
80
8c
7a
7e
8d
8a
76
83
99
7e
66
bf
97
a3
71
95
95
67
62
67
2c
9a
74
7d
63
82
6c
86
73
75
9b
7e
8d
89
77
90
6f
5e
3f
01
43
aa
9e
63
65
63
74
77
9a
8e
58
81
67
64
6a
5d
60
48
51
4e
4b
69
96
58
5a
5f
71
9a
91
9d
7c
69
76
7d
95
8d
72
61
90
68
89
63
94
92
8c
67
8a
71
70
6f
76
61
91
90
6d
6b
99
7d
7f
81
7e
65
73
91
7f
9d
70
74
8c
7b
5f
78
80
89
6e
a0
6f
76
8e
6b
9a
87
7a
92
8a
94
74
9f
7b
8c
89
78
72
80
8e
64
6d
83
88
58
5e
7c
85
7c
86
81
86
63
8b
8e
7c
67
7f
6e
91
79
8d
62
6b
79
98
71
6e
61
55
75
88
ab
71
a1
62
85
81
7a
65
9f
5c
6f
8c
75
8a
92
89
79
63
62
78
81
82
96
81
b2
8e
9b
8a
90
86
8b
87
8a
79
8b
7b
9e
7e
6c
0d
5e
77
71
6a
73
8e
96
68
9a
88
90
75
88
7e
8b
88
85
87
81
7e
86
88
8f
86
8b
81
95
55
88
65
73
7c
8e
6d
96
8c
8b
8b
90
81
7f
83
8c
84
8e
91
87
87
8b
89
84
87
85
6d
80
8e
65
61
97
65
76
8f
a4
90
90
83
81
84
84
85
86
97
80
8a
86
74
78
74
7f
78
87
87
83
83
8b
6e
97
9d
96
b4
6b
85
8d
8f
86
76
8f
80
81
77
8b
81
82
7e
85
79
80
86
7a
7b
7a
73
71
2d
71
7e
7c
92
86
98
7f
77
82
81
80
80
8e
84
81
7f
86
85
78
87
82
76
79
82
82
7c
74
5c
74
74
84
82
a9
93
a0
76
83
7a
88
90
8e
7e
7a
79
82
88
89
79
85
89
83
84
80
7a
3c
87
62
96
8a
a4
5a
9d
74
78
83
82
88
7f
84
7e
77
7f
82
74
87
86
7a
82
82
83
86
8b
4d
8a
4e
94
70
6b
6b
a3
91
73
82
80
7e
82
7d
7e
90
87
76
84
89
84
82
87
74
89
84
8f
24
a5
6a
81
80
6c
76
73
82
84
74
80
79
7c
81
81
89
7d
85
80
82
77
7e
7c
82
7f
79
4b
5a
a0
8b
76
a0
5a
49
92
66
98
85
7d
89
80
82
81
82
89
88
74
88
8a
7a
90
90
85
70
8d
80
7a
99
81
71
a3
6a
9d
85
64
72
7e
8a
7c
7b
7b
8b
87
86
7c
7a
7e
7d
76
75
84
83
75
8a
3e
82
96
7c
7a
a4
75
6a
7e
84
78
7a
79
89
84
7f
7c
81
81
86
89
8e
87
8f
81
82
87
84
34
b3
66
9d
9c
a1
91
8a
7e
7a
7c
67
81
80
82
86
7a
7e
86
77
7b
83
8d
81
6c
7d
82
a3
38
7d
66
9c
b6
82
90
95
88
88
8e
7b
79
85
84
7d
85
6f
7a
81
82
89
8b
80
7a
7f
82
73
01
75
64
86
81
95
90
82
84
85
77
89
7b
7b
80
7f
7e
83
91
7c
8a
82
86
7f
88
83
89
73
24
81
82
66
a0
6c
8e
7a
84
6f
7d
7c
86
8b
81
91
82
87
8c
84
7e
8c
80
80
76
7f
88
72
44
61
79
69
72
7b
9b
86
81
7d
8a
86
86
80
80
74
84
75
77
87
82
88
85
8e
77
7a
8c
82
58
81
61
89
7f
99
89
90
7d
8c
8a
86
7d
78
7d
82
77
89
84
7b
85
83
7b
7a
83
85
82
5c
4a
7f
7d
65
76
79
94
7d
84
78
86
81
87
7e
88
88
82
87
8e
83
8a
75
91
80
71
92
7b
48
65
b4
71
6a
90
9a
8d
94
8b
83
84
79
77
83
8c
7b
8e
71
86
77
8a
86
81
95
82
64
81
85
30
a9
81
92
65
a9
b0
8a
74
87
8a
85
8c
7e
7e
7a
8a
82
7a
84
85
89
63
89
8d
8d
9b
2e
6e
57
8a
95
71
9d
43
6d
99
8a
87
9a
8e
8a
85
87
81
79
91
91
7c
93
a0
74
6b
99
25
60
6c
94
82
68
84
7b
5f
63
bb
95
9e
78
74
85
97
83
90
8f
89
80
89
78
8d
a2
78
9b
54
88
74
84
97
83
6d
62
8d
63
77
92
73
61
5e
78
61
67
55
52
5a
61
73
5b
53
7a
62
60
9a
85
9d
89
98
5f
89
65
8e
82
89
84
83
64
82
62
95
5e
84
84
76
83
6c
8a
63
64
98
69
75
8f
62
7d
64
6c
5f
64
67
69
83
67
80
65
6f
68
5d
47
5f
a7
25
2a
62
6a
4e
4b
5b
85
86
69
76
8f
95
94
64
83
63
4d
76
6c
34
76
39
25
6e
7e
7e
96
78
83
70
49
77
63
71
7c
34
6d
64
92
7c
80
6d
8f
44
3e
49
4f
a2
73
3c
9c
6e
77
41
80
6e
72
80
65
96
76
80
84
82
67
57
59
5f
68
64
75
55
9d
8b
65
a4
6f
88
7e
7f
7e
8c
75
73
81
87
84
8a
9e
99
9a
8a
a2
72
47
7b
80
96
6d
b0
9c
9a
8d
7a
85
83
83
88
90
8a
87
8e
86
8b
85
8a
82
70
80
89
83
76
6b
7f
65
6f
55
6f
97
8a
69
88
7c
88
75
92
79
81
7c
67
71
74
6e
7d
7b
88
80
8e
8a
78
a5
12
81
6f
68
7c
83
a3
85
80
89
7c
80
77
80
82
76
7b
81
79
80
89
7c
86
7b
7b
7b
71
a7
03
4e
3b
d2
ab
8d
73
85
81
85
8e
84
8c
78
7a
83
80
6f
82
80
73
73
8a
72
7c
78
95
86
88
6e
80
bb
7a
7b
83
84
7c
84
87
8b
84
7b
79
74
7f
89
77
87
86
83
7e
73
8c
7a
72
90
5e
62
5b
96
8c
73
6d
70
81
8f
86
81
82
7d
77
7a
79
80
87
74
86
74
8c
8e
6a
9d
83
42
4d
6a
55
65
93
85
81
8b
83
7e
8e
8e
79
a1
73
68
89
90
85
84
86
70
7c
7a
78
5b
79
73
82
64
5f
95
8d
6a
83
79
89
89
7c
7d
8b
90
84
78
7e
85
73
7a
83
7d
99
8c
80
ad
63
4a
59
87
85
52
73
8e
86
8b
7e
8f
86
90
89
8a
82
85
7b
8a
8e
7b
8c
98
95
83
75
74
96
94
7c
6e
81
48
95
86
85
7b
8f
89
7e
79
81
92
80
89
7b
83
86
7c
87
73
88
85
72
7f
90
29
3f
6f
7b
b1
7f
80
78
85
82
81
83
92
89
81
79
82
83
8c
91
8f
89
85
7a
8f
7a
58
7c
b5
6d
61
82
69
86
6a
71
79
83
7e
7c
82
83
8a
74
81
8d
80
82
83
90
86
70
6c
8e
83
7f
73
19
83
7a
b3
6b
85
8b
81
91
81
88
86
8b
7f
8a
78
88
84
82
92
7d
81
7c
7e
89
5d
8b
7c
0f
3e
62
87
85
8e
75
86
7f
8b
89
76
85
88
88
8f
8e
84
80
80
82
7f
89
6b
87
8c
4b
67
c3
5f
41
69
a8
6e
86
6f
7e
7a
7c
85
8a
7f
84
8b
8e
78
7e
87
7a
73
83
6b
78
72
78
ac
9d
69
76
82
71
97
59
86
7d
75
84
76
82
75
7c
7a
77
96
82
85
80
87
77
61
84
75
4d
84
6f
73
70
64
96
73
b2
67
77
99
81
76
75
87
74
7e
86
6d
8f
82
77
7f
74
95
95
90
7e
34
9f
8a
84
69
80
31
69
7c
7b
78
78
80
88
82
83
89
82
85
81
72
99
6b
88
8f
87
91
57
c9
82
72
89
98
85
5d
6b
74
7a
7a
7c
83
84
82
83
74
84
79
8c
82
81
91
86
54
78
91
6b
d2
71
70
86
81
80
30
76
98
7d
83
8c
76
82
76
86
7c
78
84
83
86
77
81
8f
95
8e
56
ff
73
7d
97
5e
71
7a
b7
7f
72
76
7e
7f
83
83
6c
7b
6f
91
84
77
96
77
93
6a
84
8b
52
83
6a
92
95
8e
7a
8a
78
a0
ad
22
85
61
76
87
88
76
80
76
79
63
6e
7a
36
4b
5d
70
7f
68
7d
9f
9c
88
73
83
8c
6b
59
62
7e
77
6b
52
5e
86
2b
64
68
66
67
7c
7d
81
3c
78
99
78
60
7a
95
96
77
9c
7e
6c
6e
89
73
97
7c
8d
9b
93
7f
93
8d
6c
97
81
8c
8b
96
96
6a
98
64
90
66
6b
72
76
76
7c
8f
68
69
69
71
9c
69
83
7f
7f
6c
78
80
68
66
98
69
68
74
71
70
89
6d
68
97
45
98
9c
9a
94
64
87
55
5a
4d
5a
5e
7c
7a
8d
88
84
8d
69
92
66
6b
62
89
81
6d
6b
65
c9
dc
60
5f
46
93
8e
96
7b
86
8c
7d
8a
7b
7f
7b
84
8b
8c
84
8b
80
a8
7f
7d
6a
6a
7e
bf
45
63
81
83
6f
82
7f
88
85
7d
81
7e
82
89
8c
86
85
8f
80
7e
a3
68
8f
3d
88
80
4f
ae
3f
88
87
78
85
7f
8d
82
89
93
86
81
88
89
84
7e
8d
70
87
8c
7f
86
8d
94
84
68
a6
49
a5
91
7b
83
7d
84
81
91
85
81
8a
73
77
79
7a
83
87
83
87
85
8f
88
9c
69
80
64
8c
68
6d
7b
81
7a
93
7b
84
7a
87
81
80
7b
86
78
84
81
7a
81
85
75
7a
8b
8c
7f
92
7a
74
70
78
7c
7f
7b
85
84
8d
83
80
7d
85
84
76
86
7c
7a
7d
84
78
8e
89
80
95
80
69
80
6e
63
7e
68
8b
77
86
89
8a
87
7e
7e
7c
7d
83
78
84
83
7c
8b
7d
82
92
91
84
76
67
6d
82
3d
8c
7c
75
8d
90
8c
8b
82
80
7f
82
76
85
81
79
7b
7c
85
86
80
a5
86
99
43
69
8c
75
2c
98
72
87
84
83
84
82
81
90
8b
79
7d
87
7f
7d
81
68
83
6a
83
a9
9b
95
67
6c
82
87
a0
77
84
84
80
81
7d
7f
86
88
82
80
81
7b
77
76
79
7e
80
74
6f
42
a8
e5
90
80
6d
6c
79
88
91
7b
84
86
7f
86
84
87
89
82
72
81
86
78
90
93
88
8c
72
68
46
aa
6a
a2
8c
94
a0
86
78
75
81
87
7e
7f
81
8a
84
87
7a
7a
7c
7a
77
78
87
89
74
a7
40
5e
71
89
67
7e
6e
73
74
85
7e
7e
7f
8a
85
7f
7e
7e
7d
85
88
95
87
86
81
75
7e
91
91
5d
64
8b
94
7c
8c
79
81
77
76
71
79
84
7f
89
76
7c
84
79
7b
7a
8a
7f
6a
88
86
7e
82
49
89
6d
5e
56
9a
8e
84
8e
88
7d
7c
86
84
7b
81
72
81
82
85
8d
85
85
7f
78
81
81
7d
92
6f
9a
81
48
80
8c
85
83
7f
84
7f
80
83
86
82
8b
8c
7c
86
7e
88
7a
81
88
83
82
68
aa
7f
7d
81
91
7d
84
7d
7b
7f
81
82
8d
83
90
80
83
8f
80
7d
89
7a
85
7a
7e
88
82
90
59
69
7e
6c
79
95
7a
81
78
83
87
84
80
81
7b
84
76
76
89
81
84
8a
86
6e
80
8b
6e
9a
59
9b
67
70
65
86
91
87
8b
8b
83
80
7b
81
80
7b
87
85
77
8c
7e
72
85
8a
85
8a
7c
8c
61
7f
8e
7e
7b
82
81
78
74
83
80
87
81
85
8c
84
8b
8e
87
85
7d
93
78
78
88
8c
92
8d
a8
8e
82
9a
84
94
90
89
84
7c
7f
79
85
89
81
87
78
82
7f
8b
7a
83
97
84
72
9b
6f
a6
c4
85
7a
90
77
7f
75
7d
7c
84
80
8f
7c
7c
7c
87
86
7f
81
87
91
6a
8e
7f
89
4f
a5
01
56
8d
87
73
70
8f
a1
88
83
8b
7d
91
80
88
7b
83
72
9a
87
86
91
a4
73
8f
ad
92
e8
90
65
9c
94
87
88
8b
8b
7c
68
4d
63
7a
76
9a
8e
91
7c
9c
88
80
85
89
90
8b
82
35
59
8c
7c
80
6c
65
9c
6a
6e
76
89
74
94
8a
a8
93
90
88
7e
6b
8e
95
7e
67
66
5c
69
69
6a
9b
7c
80
69
75
86
9b
68
5c
74
a3
72
6a
93
79
a3
89
7b
a6
79
a0
8d
65
87
a6
90
76
7f
9d
a2
8e
68
9e
6d
65
69
71
aa
79
9c
98
77
83
97
9d
71
80
8e
a9
76
b8
bd
ab
7b
8e
7e
9a
96
66
a4
88
65
bd
95
5d
69
96
7f
7a
9d
8b
a3
80
8b
82
8b
89
86
85
98
9d
77
af
79
70
97
5b
78
8c
5f
e5
84
5f
c7
89
aa
89
93
91
7b
93
7c
8d
7d
7e
7b
8c
86
8e
82
9e
92
46
f0
94
64
5e
4b
5d
84
92
7d
87
70
86
7e
81
7b
7d
83
72
89
8c
84
82
90
90
82
87
71
65
4c
d5
71
7c
96
1c
8a
5c
91
62
95
71
9d
70
8c
89
89
81
83
8b
8a
8b
86
79
6f
9c
8e
6f
9c
d9
a7
77
85
69
97
95
65
93
74
7e
70
9d
7b
83
80
72
6a
7a
6b
7c
84
84
88
92
74
90
75
99
65
7e
98
4b
88
8f
71
84
85
81
7c
77
87
7e
7b
7f
7e
6b
82
7d
66
88
6a
63
ac
60
9c
73
88
63
6b
3f
71
6d
82
73
81
87
8c
7f
77
81
7d
7a
75
8a
6e
75
6d
7c
8a
6b
5d
77
97
5a
6c
90
67
6f
a1
7a
6c
86
85
80
8b
85
7a
6e
7f
7d
77
69
7a
82
7f
8a
69
75
86
60
40
7a
5c
a4
68
59
71
74
79
7c
8f
86
84
7c
75
83
75
72
7e
81
74
67
7d
7a
80
7a
8c
79
82
71
8a
5d
7e
6a
7c
99
70
8d
84
82
87
73
97
8a
75
77
93
75
7c
8f
6c
8e
71
8d
7b
5e
78
bb
7b
6d
5e
60
8d
70
77
79
8a
8c
75
96
87
81
82
73
80
78
76
73
79
8b
9a
88
98
7d
19
84
99
a5
8c
4d
7e
96
99
7f
89
76
8f
7b
82
89
81
73
86
88
72
90
95
9b
87
90
90
88
50
8d
62
7b
65
6e
57
93
75
85
8c
85
81
87
8d
87
7e
79
7e
70
7e
7f
72
82
8f
79
85
92
84
54
9e
5f
82
6b
34
58
85
86
86
7e
92
89
81
80
8a
7d
84
8c
96
7b
90
87
7b
75
7f
90
66
8b
9c
9c
89
5e
86
88
82
8e
6f
86
89
85
8e
71
79
86
7d
74
87
99
6f
73
72
86
84
8b
8e
56
a6
5d
70
89
5c
9e
7b
80
8f
83
94
99
79
8f
7f
7d
82
85
86
88
8b
71
8c
84
80
99
60
36
86
7c
6d
c1
7a
75
7f
99
81
89
87
7c
a0
85
88
95
7d
8a
8b
82
74
8e
71
7f
7f
a2
7b
6f
7c
58
6b
3c
90
78
72
6e
82
81
96
95
92
8a
90
96
83
81
87
83
83
6d
92
8e
61
77
7b
7f
98
96
8a
01
7f
84
68
98
77
88
8a
7b
8c
7d
80
76
8f
7d
90
77
95
7a
6d
88
80
a2
9a
5d
76
7c
55
87
8e
7b
86
8c
8b
85
77
82
88
85
90
89
7a
8f
88
74
81
76
9d
7d
9c
7e
9f
a1
8f
83
5c
7b
57
7c
28
99
7a
88
8f
80
96
90
84
a4
83
8d
77
93
71
91
79
46
2f
56
d7
5d
99
60
7f
7b
a2
55
52
62
68
7f
71
84
85
85
7b
7e
7d
79
87
89
a2
66
7d
1e
2c
81
84
9b
97
98
59
83
66
7c
88
4b
74
29
38
26
87
7a
67
7c
91
8a
8a
44
9d
0d
8b
73
91
6a
a0
9f
7c
90
7c
9a
72
70
7d
91
84
59
74
ad
94
4b
61
60
2d
50
7a
61
4e
80
8a
8c
78
94
8e
5c
a0
64
84
62
9e
96
7c
8b
96
8e
62
71
57
75
5a
a2
75
86
78
88
70
59
86
7e
a5
75
a3
8a
a3
5b
9c
89
67
64
8a
6b
63
8c
5f
6b
a0
88
74
5f
59
70
7f
7c
8b
5f
68
a6
8b
70
5e
80
7e
84
6d
7f
72
6e
90
78
96
84
74
73
92
95
77
78
84
7b
8a
6b
82
94
93
72
82
6c
78
69
95
7d
67
85
93
8a
70
7b
73
96
7b
72
6b
87
87
67
60
60
91
6f
86
81
7b
72
85
90
6b
95
96
69
8a
8e
6a
79
6a
67
70
8e
7e
77
60
6d
86
85
6a
91
70
80
8a
7d
86
81
81
87
91
82
6d
7f
75
83
7f
67
5f
86
80
7c
89
55
58
5a
56
69
5e
7a
81
6e
40
56
48
70
87
6e
7a
73
69
8a
82
cf
9f
4a
1b
47
65
50
01
79
8d
76
7c
7c
68
57
51
65
54
a1
6b
6a
83
97
90
7a
7c
72
7c
ad
47
a7
90
74
87
88
88
7f
90
8f
84
7e
8a
79
85
79
6b
65
7c
17
68
7d
6a
6c
86
81
89
91
92
83
84
81
8a
88
80
99
7d
85
87
74
7b
7c
7b
7f
7f
8d
86
71
7d
5f
65
84
77
8d
8f
9e
89
84
89
85
7f
80
87
79
86
88
79
82
86
7d
87
83
7d
89
75
78
7b
7d
92
85
3a
be
90
8b
87
78
7e
87
8d
87
86
8a
82
79
8c
87
7d
82
84
77
7d
7e
84
85
73
6e
63
75
82
ad
8e
97
8c
89
85
7b
82
88
8e
81
87
7a
85
85
85
82
88
88
7e
85
78
83
96
7f
68
cd
73
96
8b
94
86
78
85
80
8b
8a
7f
83
74
86
85
7d
8c
86
78
86
81
8a
8b
74
74
a3
84
ca
80
5d
99
77
85
83
7c
89
7a
88
8e
7d
93
84
7d
87
8a
83
8a
82
81
86
88
7c
76
4b
3d
fd
72
a2
86
84
8d
83
74
83
90
7d
75
88
7b
74
80
83
85
7f
81
81
79
89
87
80
70
9a
86
fd
8c
87
8a
99
86
80
91
79
84
7b
88
82
77
7a
81
79
87
86
77
86
93
8b
84
69
9a
91
71
91
96
7d
8d
75
81
89
6c
86
86
80
78
7d
7e
85
85
76
7f
84
84
89
7d
7c
83
88
6d
6f
3f
6c
8e
7e
6d
b7
74
73
87
7b
7b
7a
8c
84
76
7b
7e
81
7c
8f
90
84
87
82
89
87
7d
7d
5c
7a
8d
66
47
60
77
78
7b
87
78
7d
82
75
85
7b
77
8c
7e
84
85
8d
80
75
74
81
7a
58
6d
48
7e
7a
58
8a
90
8b
82
82
7e
82
7f
84
83
84
78
80
82
7b
88
85
88
6e
87
77
8e
88
9b
51
ab
91
a0
8a
74
86
6f
7f
81
7b
83
84
7a
86
8c
89
7b
86
89
79
7a
8d
7d
79
6f
6f
dd
53
98
bb
b1
9e
a0
6e
7b
70
7e
81
79
87
8e
7e
83
87
7e
7a
78
89
81
77
77
63
97
71
3e
7b
82
6b
c8
48
4b
6e
66
7f
80
7a
81
7a
7d
82
7b
77
7e
79
7a
7a
72
6f
7e
7e
89
7c
7d
88
83
72
6c
2d
8d
85
91
6f
8c
78
78
79
84
73
7b
80
80
85
7f
6f
7b
7f
7b
7e
87
98
4b
88
76
96
8b
38
68
86
6e
87
84
84
84
81
89
84
8e
87
81
84
76
94
79
7c
77
5d
68
9f
42
75
7f
86
32
37
8a
74
81
89
6d
75
7c
7f
7e
7d
71
84
76
83
80
77
7b
69
7b
6a
8a
80
63
8c
8b
90
91
93
81
8f
85
84
7f
87
7c
7c
74
8c
7c
7f
82
87
7e
75
94
7b
7f
79
90
74
67
89
8d
7b
5b
9e
8a
86
88
80
8c
87
82
89
7f
7c
7c
8c
8a
7c
8f
80
88
85
8c
6d
87
6d
7c
8a
92
93
6f
87
8d
80
88
90
7e
81
84
8e
86
8d
88
8d
84
85
85
9e
78
90
97
77
5c
70
74
6e
83
91
78
8e
7d
6d
8e
80
89
90
81
8a
86
8f
89
8d
95
a2
80
a2
7a
bd
87
c2
82
8b
7d
8a
97
60
9e
7e
66
77
76
71
85
93
9f
96
65
a3
5e
81
75
5d
5b
7f
7a
7e
a3
71
80
97
88
6a
77
9c
80
8f
9b
66
8b
8a
7d
99
5c
98
9e
7b
6d
64
65
7a
85
7a
64
7e
77
9f
a3
61
91
8f
98
78
9d
84
69
6d
8b
6a
8a
5c
50
4f
5b
84
5b
63
3a
81
95
62
6b
5e
6d
59
82
91
8f
90
71
9e
4c
70
92
96
70
5a
7b
a1
85
91
75
9a
73
87
7d
78
82
82
85
86
77
a9
58
7e
2a
78
92
8a
a6
46
46
58
6d
6d
87
7f
8a
84
88
7f
88
7c
85
8e
8c
86
8f
86
81
7b
9e
6b
8b
5d
6a
5f
8a
6b
8b
6f
8f
7f
79
82
8e
89
90
97
88
87
8a
8f
83
81
8d
6e
87
88
7d
80
94
7a
5b
52
70
6d
83
81
78
82
82
83
81
96
87
83
8a
71
77
76
77
84
87
84
82
8b
87
8b
98
55
6e
73
8c
5e
9a
84
81
72
94
7c
82
74
85
88
76
83
86
71
88
85
78
85
82
78
6f
7b
a0
51
76
5a
43
97
8a
78
8b
80
81
89
91
84
81
81
88
84
77
86
7b
78
79
83
7c
87
88
77
98
95
92
5d
60
93
7a
7b
84
7d
8f
8e
91
86
79
7c
7c
7e
86
79
84
86
7f
8b
79
81
84
98
89
38
9b
65
61
80
8e
78
81
85
8d
87
8d
80
7f
7e
82
6e
82
83
7a
84
7d
87
8a
79
8e
86
94
74
94
96
50
65
86
74
80
8c
88
8b
82
80
95
8b
7a
82
8a
7d
7e
83
72
8b
7e
85
8d
73
e2
3a
8e
70
43
ac
87
8b
76
7b
7e
7d
7c
85
89
81
83
81
7e
7a
77
86
80
8e
89
78
ad
61
72
a0
7a
5e
49
87
76
75
87
85
8c
7f
81
86
83
8e
83
77
87
8a
78
90
9b
8a
8e
8f
85
8e
85
88
5d
67
61
8c
68
8e
7a
77
85
74
79
83
8f
8a
8a
7a
7a
7f
7c
7c
6e
88
71
69
7c
a8
a5
68
6c
66
65
67
82
5b
77
82
7c
7e
8c
85
80
80
84
80
86
88
97
89
85
7d
83
6f
7f
87
29
6a
64
62
88
b2
58
7e
81
7c
72
7a
88
82
8d
73
7e
86
7e
7d
7e
84
7c
63
6b
8e
83
8d
47
97
7b
5b
79
8f
a2
80
81
92
83
84
8c
8b
83
88
74
7b
87
7d
87
8b
80
79
88
85
95
4e
74
9a
8e
54
71
01
7c
7f
86
79
89
84
86
89
87
82
89
90
75
84
83
83
7d
84
7e
7f
80
97
5e
76
6e
6f
57
83
71
84
6e
7e
78
89
8e
85
91
81
84
8d
81
7d
8d
7e
7f
6c
88
93
5e
59
5d
75
9c
69
5f
8e
7d
77
76
8c
85
7e
83
79
7b
83
70
78
85
7e
84
86
8a
79
78
87
89
91
4e
7a
6b
55
51
60
91
81
92
8a
80
86
71
80
81
7a
8b
81
76
8e
7f
72
7f
81
8e
91
5b
81
5f
84
79
84
34
91
73
82
74
86
84
85
82
86
8d
87
8d
91
81
89
76
90
76
79
94
69
a4
a9
55
69
a1
74
93
61
90
7d
77
81
78
79
81
88
83
8d
71
88
7c
8a
82
88
92
8b
6d
af
81
73
58
9e
9b
8c
86
4c
72
70
7a
83
81
8b
7a
7d
7d
88
84
7c
8c
7e
91
7c
8a
81
88
81
24
49
86
84
72
5e
74
71
4d
5f
9c
77
85
79
85
81
77
76
74
95
8d
85
8f
8d
93
71
4e
6d
55
74
90
79
69
60
89
9d
95
44
56
71
8b
6f
74
97
8f
85
90
5e
6a
7f
8c
7e
3d
7e
97
9e
62
61
9d
7c
92
7d
82
9f
97
94
99
5e
87
9f
69
61
78
5a
78
87
7b
50
83
58
61
5f
96
51
76
75
70
74
6a
a3
9b
a4
69
76
64
9b
9e
6c
6d
65
7c
68
61
6c
74
65
89
95
78
7f
78
9f
7a
9a
a6
a0
65
5b
95
a6
65
9f
75
7a
5c
89
93
9d
5f
5d
59
45
42
65
88
36
63
86
7b
62
60
78
77
9a
a4
9b
98
6b
8b
65
8a
6c
8f
98
6e
8b
8c
7c
74
6d
61
4f
81
5e
81
9d
5d
86
8c
68
9f
85
8c
60
6b
8e
9d
59
74
9a
5c
51
88
56
4a
5e
63
37
5e
59
85
67
5f
6e
6e
92
9a
71
5e
a6
70
89
8c
77
76
57
63
66
49
5a
89
74
84
80
75
81
77
87
8e
61
b0
2c
4e
6e
64
58
5f
8e
5d
7a
7f
76
60
57
46
6d
86
80
87
95
8c
9e
7f
8f
7f
8a
83
85
85
68
79
3e
5f
37
92
7b
88
8d
58
4b
7d
0b
7c
77
7c
90
77
a1
80
89
8c
71
7b
7b
7d
81
87
8a
84
93
7a
af
75
80
84
34
66
a7
71
73
7f
76
8b
7a
87
76
8b
8d
7b
87
89
79
84
85
7d
82
75
79
6e
67
77
87
17
71
75
41
7f
81
81
78
90
88
88
86
79
80
91
83
7b
84
81
72
71
8c
7a
82
72
8a
6f
7d
83
57
4f
a4
6f
75
8e
7d
83
8a
96
85
80
7d
7e
8b
81
7b
87
87
80
7b
75
77
92
57
70
7d
65
7a
30
9b
80
76
84
7d
8f
89
82
83
77
78
87
6f
87
83
74
87
77
8d
8c
73
73
a8
4f
7c
8c
3b
65
73
77
85
7e
8e
85
8a
90
7c
a0
85
75
86
8e
87
8a
81
82
84
82
76
7a
68
b5
71
69
44
7f
81
8d
88
7f
81
89
81
76
89
7e
81
84
82
83
77
7d
86
7e
9a
85
99
8f
1e
7e
6c
70
59
73
85
94
8d
8d
81
92
7d
8a
85
80
89
89
76
8b
8e
78
95
9e
92
83
6e
85
68
9b
9c
4c
7f
9d
8c
7c
7b
75
8d
83
7d
77
7e
8a
89
8a
79
7f
83
80
80
76
88
89
6b
5a
9f
b5
7d
56
82
1b
b4
72
76
86
7c
81
7b
93
87
7d
7c
7d
83
86
90
95
87
87
7c
7f
80
52
84
b3
66
76
a4
80
60
7d
77
74
81
7a
76
86
84
85
72
7b
8a
7e
82
82
87
81
63
7e
80
76
42
b7
48
a3
72
63
8f
78
91
7d
90
80
80
8e
86
86
8c
6f
84
81
7b
8d
8a
7d
75
6f
92
57
93
40
4a
b1
6f
6d
86
79
75
87
7c
85
7e
8a
8f
78
80
94
92
7e
89
85
77
82
8a
81
69
68
8b
6f
51
93
70
7b
82
72
70
6d
82
7e
7b
87
7e
97
7d
7e
8c
80
74
89
88
7c
77
72
84
75
56
4d
8b
69
6f
5e
6d
7c
80
6f
7c
82
7b
7b
77
6e
80
75
70
87
81
7c
80
84
5d
7b
88
8c
b3
4c
a4
90
70
88
66
71
99
98
82
81
82
76
70
84
6c
7c
7f
75
84
7b
75
73
a5
83
59
a9
4d
01
5d
68
79
5f
91
a4
60
66
81
8b
83
89
8b
8b
86
91
87
81
84
73
86
74
63
84
94
aa
9a
11
6e
9e
8d
2a
90
52
79
7d
80
7a
73
7c
81
82
83
72
84
73
89
7d
8b
8d
8d
85
84
a3
41
61
a7
a1
6b
50
42
a5
7f
84
89
7c
88
78
77
74
89
77
7e
80
85
8b
72
92
7a
9c
90
72
a5
73
9f
5d
68
9b
63
7a
a2
88
7c
92
87
86
89
78
7b
79
90
8e
7f
97
83
99
8d
7c
8c
67
c6
5f
60
66
a3
60
7d
b9
8b
9d
9e
83
8e
89
a3
98
96
98
8b
85
87
8b
99
8d
87
91
7a
ed
62
a5
86
7b
78
a1
86
72
3f
84
78
76
9a
78
8f
8b
65
85
79
aa
74
92
78
82
86
6f
38
86
8b
61
7d